#ifndef SINE_MODEL_H
#define SINE_MODEL_H


unsigned int sine_model_len = 3148;
unsigned char sine_model[] = {
 0x1c, 0x00, 0x00, 0x00, 0x54, 0x46, 0x4c, 0x33, 0x14, 0x00, 0x20, 0x00,
  0x1c, 0x00, 0x18, 0x00, 0x14, 0x00, 0x10, 0x00, 0x0c, 0x00, 0x00, 0x00,
  0x08, 0x00, 0x04, 0x00, 0x14, 0x00, 0x00, 0x00, 0x1c, 0x00, 0x00, 0x00,
  0x98, 0x00, 0x00, 0x00, 0xf0, 0x00, 0x00, 0x00, 0x14, 0x07, 0x00, 0x00,
  0x24, 0x07, 0x00, 0x00, 0xf8, 0x0b, 0x00, 0x00, 0x03, 0x00, 0x00, 0x00,
  0x01, 0x00, 0x00, 0x00, 0x10, 0x00, 0x00, 0x00, 0x00, 0x00, 0x0a, 0x00,
  0x10, 0x00, 0x0c, 0x00, 0x08, 0x00, 0x04, 0x00, 0x0a, 0x00, 0x00, 0x00,
  0x0c, 0x00, 0x00, 0x00, 0x1c, 0x00, 0x00, 0x00, 0x3c, 0x00, 0x00, 0x00,
  0x0f, 0x00, 0x00, 0x00, 0x73, 0x65, 0x72, 0x76, 0x69, 0x6e, 0x67, 0x5f,
  0x64, 0x65, 0x66, 0x61, 0x75, 0x6c, 0x74, 0x00, 0x01, 0x00, 0x00, 0x00,
  0x04, 0x00, 0x00, 0x00, 0x90, 0xff, 0xff, 0xff, 0x09, 0x00, 0x00, 0x00,
  0x04, 0x00, 0x00, 0x00, 0x08, 0x00, 0x00, 0x00, 0x6f, 0x75, 0x74, 0x70,
  0x75, 0x74, 0x5f, 0x30, 0x00, 0x00, 0x00, 0x00, 0x01, 0x00, 0x00, 0x00,
  0x04, 0x00, 0x00, 0x00, 0xba, 0xf9, 0xff, 0xff, 0x04, 0x00, 0x00, 0x00,
  0x0c, 0x00, 0x00, 0x00, 0x6b, 0x65, 0x72, 0x61, 0x73, 0x5f, 0x74, 0x65,
  0x6e, 0x73, 0x6f, 0x72, 0x00, 0x00, 0x00, 0x00, 0x02, 0x00, 0x00, 0x00,
  0x34, 0x00, 0x00, 0x00, 0x04, 0x00, 0x00, 0x00, 0xdc, 0xff, 0xff, 0xff,
  0x0c, 0x00, 0x00, 0x00, 0x04, 0x00, 0x00, 0x00, 0x13, 0x00, 0x00, 0x00,
  0x43, 0x4f, 0x4e, 0x56, 0x45, 0x52, 0x53, 0x49, 0x4f, 0x4e, 0x5f, 0x4d,
  0x45, 0x54, 0x41, 0x44, 0x41, 0x54, 0x41, 0x00, 0x08, 0x00, 0x0c, 0x00,
  0x08, 0x00, 0x04, 0x00, 0x08, 0x00, 0x00, 0x00, 0x0b, 0x00, 0x00, 0x00,
  0x04, 0x00, 0x00, 0x00, 0x13, 0x00, 0x00, 0x00, 0x6d, 0x69, 0x6e, 0x5f,
  0x72, 0x75, 0x6e, 0x74, 0x69, 0x6d, 0x65, 0x5f, 0x76, 0x65, 0x72, 0x73,
  0x69, 0x6f, 0x6e, 0x00, 0x0d, 0x00, 0x00, 0x00, 0x20, 0x06, 0x00, 0x00,
  0x18, 0x06, 0x00, 0x00, 0xc8, 0x05, 0x00, 0x00, 0xac, 0x05, 0x00, 0x00,
  0x5c, 0x05, 0x00, 0x00, 0x4c, 0x01, 0x00, 0x00, 0xfc, 0x00, 0x00, 0x00,
  0xac, 0x00, 0x00, 0x00, 0xa4, 0x00, 0x00, 0x00, 0x9c, 0x00, 0x00, 0x00,
  0x94, 0x00, 0x00, 0x00, 0x74, 0x00, 0x00, 0x00, 0x04, 0x00, 0x00, 0x00,
  0x6a, 0xfa, 0xff, 0xff, 0x04, 0x00, 0x00, 0x00, 0x60, 0x00, 0x00, 0x00,
  0x0c, 0x00, 0x00, 0x00, 0x08, 0x00, 0x0e, 0x00, 0x08, 0x00, 0x04, 0x00,
  0x08, 0x00, 0x00, 0x00, 0x10, 0x00, 0x00, 0x00, 0x28, 0x00, 0x00, 0x00,
  0x00, 0x00, 0x06, 0x00, 0x08, 0x00, 0x04, 0x00, 0x06, 0x00, 0x00, 0x00,
  0x04, 0x00, 0x00, 0x00, 0x01, 0x00, 0x00, 0x00, 0xea, 0x03, 0x00, 0x00,
  0x0c, 0x00, 0x18, 0x00, 0x14, 0x00, 0x10, 0x00, 0x0c, 0x00, 0x04, 0x00,
  0x0c, 0x00, 0x00, 0x00, 0x07, 0xfb, 0xf7, 0xe3, 0x6d, 0xe7, 0x01, 0x38,
  0x02, 0x00, 0x00, 0x00, 0x02, 0x00, 0x00, 0x00, 0x04, 0x00, 0x00, 0x00,
  0x06, 0x00, 0x00, 0x00, 0x32, 0x2e, 0x32, 0x30, 0x2e, 0x30, 0x00, 0x00,
  0xd6, 0xfa, 0xff, 0xff, 0x04, 0x00, 0x00, 0x00, 0x10, 0x00, 0x00, 0x00,
  0x31, 0x2e, 0x35, 0x2e, 0x30, 0x00, 0x00, 0x00, 0x00, 0x00, 0x00, 0x00,
  0x00, 0x00, 0x00, 0x00, 0xe4, 0xf5, 0xff, 0xff, 0xe8, 0xf5, 0xff, 0xff,
  0xec, 0xf5, 0xff, 0xff, 0xfe, 0xfa, 0xff, 0xff, 0x04, 0x00, 0x00, 0x00,
  0x40, 0x00, 0x00, 0x00, 0x00, 0x00, 0x00, 0x00, 0x00, 0x00, 0x00, 0x00,
  0x00, 0x00, 0x00, 0x00, 0x00, 0x00, 0x00, 0x00, 0x00, 0x00, 0x00, 0x00,
  0x02, 0xfd, 0x4f, 0xbc, 0x00, 0x00, 0x00, 0x00, 0x00, 0x00, 0x00, 0x00,
  0x00, 0x00, 0x00, 0x00, 0x00, 0x00, 0x00, 0x00, 0x2a, 0x2a, 0xba, 0xbe,
  0x00, 0x00, 0x00, 0x00, 0x00, 0x00, 0x00, 0x00, 0x00, 0x00, 0x00, 0x00,
  0xfc, 0x8c, 0xba, 0x3e, 0x00, 0x00, 0x00, 0x00, 0x4a, 0xfb, 0xff, 0xff,
  0x04, 0x00, 0x00, 0x00, 0x40, 0x00, 0x00, 0x00, 0xe0, 0x6e, 0xc4, 0xbc,
  0xcd, 0xb1, 0x9e, 0xbe, 0x9a, 0xf5, 0xf7, 0xbe, 0x1e, 0x12, 0xb9, 0xbe,
  0xb0, 0xc5, 0xb9, 0xbd, 0x10, 0x34, 0x29, 0x3f, 0xe5, 0x43, 0xe7, 0xbe,
  0x70, 0x4b, 0x5e, 0xbd, 0xfc, 0xcc, 0x00, 0xbf, 0xf0, 0x8d, 0xb8, 0xbd,
  0xb0, 0xe7, 0xf8, 0x3e, 0x28, 0x17, 0x1d, 0xbe, 0xf6, 0x76, 0x02, 0xbf,
  0x38, 0x67, 0x48, 0xbe, 0xd2, 0x9a, 0x1d, 0x3d, 0x8b, 0x57, 0x0f, 0xbf,
  0x96, 0xfb, 0xff, 0xff, 0x04, 0x00, 0x00, 0x00, 0x00, 0x04, 0x00, 0x00,
  0x9a, 0x65, 0x4c, 0x3e, 0x9c, 0x90, 0xa5, 0xbe, 0x20, 0xb5, 0xe9, 0xbc,
  0xac, 0xe5, 0x81, 0xbe, 0x78, 0xe5, 0x20, 0xbe, 0x24, 0xed, 0x4c, 0xbe,
  0xec, 0xd1, 0xf6, 0x3d, 0xd7, 0xdf, 0x93, 0x3e, 0xd8, 0xc7, 0x56, 0xbe,
  0x47, 0xba, 0xa6, 0x3e, 0xc8, 0x73, 0x42, 0x3d, 0xa8, 0x2b, 0x36, 0xbe,
  0xa0, 0xd8, 0x0b, 0xbd, 0xaa, 0x59, 0x8a, 0xbe, 0x8e, 0x4f, 0x5f, 0xbe,
  0x57, 0xd0, 0x6d, 0xbe, 0xe0, 0x69, 0x57, 0x3c, 0x4f, 0x19, 0x80, 0x3e,
  0x00, 0xf2, 0xa7, 0xbd, 0xcf, 0x4e, 0x9e, 0x3e, 0xfd, 0x4b, 0x90, 0x3e,
  0xb0, 0x2f, 0xbc, 0xbd, 0x80, 0x9f, 0xf5, 0x3c, 0xa2, 0x0d, 0xa7, 0xbe,
  0xa0, 0x2e, 0xab, 0xbc, 0xd8, 0xf2, 0x0c, 0x3d, 0x1c, 0x1f, 0xd2, 0xbe,
  0x50, 0x9a, 0x25, 0xbd, 0x73, 0xf6, 0x99, 0x3e, 0x7a, 0x24, 0x75, 0x3e,
  0xf0, 0xce, 0x14, 0xbd, 0xe3, 0x09, 0xbf, 0x3e, 0x4e, 0x69, 0x1f, 0xbe,
  0x14, 0x8c, 0xb6, 0x3d, 0x4e, 0x7a, 0xbe, 0xbe, 0x7e, 0x13, 0x53, 0xbe,
  0x30, 0x7d, 0x6f, 0x3d, 0x04, 0xb6, 0x74, 0x3d, 0x7a, 0xbd, 0x29, 0x3e,
  0x42, 0x18, 0x48, 0x3e, 0x82, 0x8e, 0x2a, 0xbe, 0xb9, 0x3b, 0xb7, 0xbe,
  0x5b, 0xfa, 0x01, 0x3e, 0xe1, 0x51, 0xd4, 0x3e, 0x9a, 0x8c, 0x01, 0xbe,
  0xa0, 0xdf, 0x85, 0x3c, 0x68, 0x98, 0x1d, 0x3d, 0x2d, 0x93, 0x9f, 0xbe,
  0x98, 0x75, 0x68, 0x3d, 0xcf, 0x6e, 0xa0, 0xbe, 0x99, 0xf4, 0x54, 0xbe,
  0x00, 0x2d, 0x00, 0xbe, 0xb9, 0x9e, 0x81, 0x3e, 0x59, 0xf8, 0x67, 0xbf,
  0xe6, 0xa5, 0x8e, 0xbe, 0x2c, 0x0c, 0xd5, 0xbd, 0x07, 0xe3, 0xc3, 0x3e,
  0xc4, 0xf4, 0xf8, 0x3d, 0xcb, 0xb4, 0x87, 0xbe, 0xf4, 0xcc, 0xcc, 0x3d,
  0xb0, 0x0e, 0xf9, 0xbd, 0xd8, 0x4c, 0x95, 0xbd, 0xd5, 0x39, 0xa4, 0x3e,
  0x16, 0x33, 0x3b, 0xbe, 0xc2, 0x81, 0x7c, 0xbe, 0xc4, 0x53, 0x08, 0xbe,
  0xc0, 0xe7, 0xa6, 0xbc, 0x99, 0x52, 0xca, 0x3e, 0xbd, 0xe5, 0xcf, 0xbe,
  0xe0, 0x88, 0x0a, 0xbe, 0x64, 0xe8, 0xae, 0x3d, 0x06, 0x47, 0x5a, 0x3e,
  0x00, 0xe4, 0x0d, 0xba, 0x45, 0xc2, 0x7d, 0xbe, 0x30, 0xcf, 0xd5, 0xbc,
  0x88, 0xa4, 0x26, 0xbd, 0xa4, 0xf7, 0xdc, 0xbe, 0x54, 0xbb, 0xa4, 0x3d,
  0x90, 0xd8, 0x96, 0xbd, 0x30, 0x3e, 0x89, 0xbe, 0x08, 0x1e, 0x01, 0x3d,
  0xc4, 0x95, 0xe1, 0xbd, 0x4e, 0x6a, 0x64, 0x3e, 0x2e, 0xee, 0x0d, 0xbe,
  0x49, 0x08, 0x92, 0x3e, 0xea, 0x70, 0x9b, 0x3e, 0xea, 0xc9, 0xce, 0xbe,
  0x1e, 0xbd, 0x02, 0x3e, 0xb2, 0x5c, 0x47, 0x3e, 0x4e, 0xf4, 0x42, 0x3e,
  0x3d, 0xcf, 0x9b, 0xbe, 0x82, 0x64, 0x7e, 0x3e, 0xcb, 0x81, 0x9d, 0x3e,
  0x1b, 0x54, 0x95, 0xbe, 0xed, 0xea, 0x9a, 0xbd, 0xde, 0x55, 0x02, 0x3e,
  0xe0, 0x10, 0x1b, 0x3c, 0xdb, 0x2f, 0xcc, 0x3e, 0x35, 0x45, 0xce, 0xbe,
  0x00, 0x04, 0xef, 0x39, 0x0c, 0x91, 0x31, 0xbe, 0x60, 0xc3, 0xac, 0xbe,
  0x75, 0xe0, 0xd6, 0xbe, 0xa9, 0x56, 0xd7, 0x3e, 0xb9, 0x44, 0xa7, 0x3e,
  0x40, 0xd2, 0x0e, 0x3c, 0xe2, 0xd4, 0x5a, 0x3e, 0xf6, 0x11, 0x92, 0xbe,
  0x21, 0xb9, 0x9a, 0x3e, 0x80, 0xfc, 0x7b, 0xbd, 0x5f, 0x0b, 0xb9, 0xbe,
  0x2c, 0x4a, 0x2a, 0xbe, 0x80, 0xd6, 0x08, 0x3d, 0xe3, 0xd5, 0x7a, 0xbe,
  0x8e, 0xb7, 0x11, 0x3e, 0x40, 0x01, 0xc1, 0x3b, 0x1d, 0xb5, 0x7a, 0xbe,
  0xe0, 0x49, 0xca, 0xbd, 0xfc, 0x83, 0xc3, 0xbd, 0xed, 0x4d, 0xa5, 0xbe,
  0xb6, 0x01, 0x36, 0xbe, 0x89, 0x3c, 0x93, 0x3e, 0x50, 0x15, 0x4f, 0x3d,
  0x6e, 0x74, 0x06, 0x3e, 0xc8, 0xde, 0xe7, 0xbd, 0xd4, 0xb3, 0x8a, 0xbe,
  0x81, 0x97, 0x8f, 0xbe, 0x72, 0x66, 0x6f, 0x3e, 0x88, 0x88, 0xcf, 0xbe,
  0x23, 0xf4, 0xab, 0x3e, 0x00, 0xf8, 0x38, 0x3d, 0x94, 0x4a, 0xdb, 0xbd,
  0xaa, 0x61, 0x09, 0x3e, 0xd0, 0x25, 0xdd, 0xbe, 0x09, 0x73, 0xa9, 0x3e,
  0xc9, 0x4d, 0x88, 0x3e, 0x50, 0xc7, 0xf5, 0x3c, 0xe0, 0x70, 0x26, 0xbd,
  0x67, 0x30, 0x5c, 0xbe, 0x64, 0x08, 0x9c, 0xbe, 0x5c, 0x9d, 0xbc, 0xbd,
  0xbb, 0xfd, 0x73, 0xbe, 0xac, 0x76, 0x7e, 0xbe, 0x26, 0x98, 0x33, 0x3e,
  0x6e, 0x66, 0x8e, 0xbe, 0x44, 0x38, 0xbb, 0x3d, 0x9c, 0xae, 0x8b, 0xbe,
  0x05, 0x9c, 0x8f, 0x3e, 0x13, 0x36, 0xdd, 0x3e, 0x5c, 0xef, 0xb0, 0xbc,
  0x4e, 0xb6, 0x50, 0x3e, 0x60, 0x79, 0x32, 0xbc, 0x98, 0x1b, 0xbb, 0xbe,
  0x25, 0x89, 0xbb, 0x3e, 0xac, 0xd3, 0x3d, 0x3d, 0xb2, 0xa7, 0xc7, 0xbe,
  0x40, 0xdd, 0xb8, 0xbc, 0x8d, 0xf4, 0xcb, 0x3e, 0xbe, 0xbb, 0x6d, 0xbd,
  0x75, 0x8b, 0x4a, 0xbe, 0x7c, 0x28, 0x8b, 0x3d, 0xd5, 0xc1, 0xc8, 0x3e,
  0xa5, 0x41, 0xa1, 0x3e, 0xb9, 0xd0, 0xbd, 0x3e, 0xac, 0x1a, 0xe6, 0x3d,
  0xed, 0x3e, 0xa7, 0x3e, 0x54, 0xa2, 0x5a, 0xbe, 0xc6, 0x2c, 0xba, 0xbe,
  0xc0, 0xe1, 0x19, 0xbd, 0xc1, 0x2b, 0x9c, 0x3e, 0x96, 0xec, 0xa5, 0x3e,
  0xd9, 0x1c, 0xcc, 0xbe, 0x7c, 0xc0, 0xce, 0x3d, 0xa7, 0x5b, 0x9e, 0x3e,
  0xc7, 0xc9, 0x8f, 0xbe, 0xff, 0xed, 0xb8, 0xbe, 0x73, 0x1a, 0xaf, 0xbe,
  0x50, 0x7a, 0x96, 0xbe, 0x77, 0xee, 0x73, 0xbe, 0x82, 0x24, 0x20, 0xbe,
  0x6c, 0x05, 0x1b, 0xbe, 0x7c, 0x84, 0xc9, 0x3e, 0xb3, 0xab, 0xd7, 0x3e,
  0x14, 0x5e, 0xb3, 0x3d, 0x10, 0x12, 0x84, 0xbc, 0x86, 0x7e, 0x1f, 0xbe,
  0xc7, 0xee, 0x87, 0xbc, 0xea, 0x9d, 0x6a, 0x3e, 0x17, 0x0e, 0xa9, 0x3e,
  0xc0, 0x78, 0x07, 0xbd, 0x4a, 0x8e, 0xe9, 0xbd, 0x66, 0x38, 0x47, 0xbe,
  0xc3, 0x0f, 0xca, 0x3e, 0xca, 0x36, 0x9e, 0xbe, 0xd2, 0x18, 0x15, 0xbe,
  0x1b, 0x15, 0xd9, 0xbe, 0x54, 0xfd, 0xee, 0x3d, 0x47, 0xac, 0x04, 0x3e,
  0xb6, 0x17, 0xbb, 0xbe, 0x75, 0xdb, 0x9e, 0x3e, 0x01, 0x0f, 0xa8, 0x3e,
  0xe0, 0x34, 0xc4, 0xbe, 0xba, 0xc6, 0x9f, 0xbc, 0x9a, 0x84, 0x41, 0x3e,
  0x39, 0x9f, 0x86, 0x3e, 0x17, 0xeb, 0xa4, 0x3e, 0x1a, 0x19, 0xb1, 0x3e,
  0x00, 0x98, 0xf3, 0xbb, 0xc4, 0x71, 0xef, 0xbd, 0x96, 0x98, 0xda, 0xbe,
  0x56, 0xa5, 0x19, 0x3e, 0x83, 0xfe, 0xa2, 0x3e, 0x06, 0xd1, 0x49, 0x3e,
  0x8d, 0xc3, 0xd6, 0x3e, 0xf8, 0xd0, 0x0d, 0xbd, 0xf8, 0xab, 0x93, 0xbe,
  0x89, 0xfe, 0x60, 0xbe, 0x90, 0xfe, 0xea, 0xbd, 0xc6, 0x10, 0xe5, 0x3e,
  0x2d, 0x97, 0xc3, 0x3e, 0x22, 0x38, 0x77, 0xbe, 0x70, 0xac, 0xec, 0xbd,
  0x9f, 0x93, 0x17, 0xbe, 0x7e, 0x45, 0x00, 0xbe, 0x34, 0xb9, 0xf4, 0x3d,
  0x18, 0xea, 0xc4, 0xbe, 0x86, 0x2c, 0xa9, 0xbe, 0xd1, 0x39, 0xaf, 0x3e,
  0x5d, 0xb0, 0xac, 0x3e, 0x70, 0x4b, 0xaa, 0x3e, 0xdf, 0xab, 0x8a, 0x3e,
  0x28, 0x8a, 0x74, 0xbd, 0x8e, 0x62, 0x6f, 0xbe, 0x98, 0x9a, 0x68, 0x3d,
  0x58, 0x79, 0x4e, 0x3a, 0x67, 0xa6, 0xb9, 0x3e, 0xe8, 0x25, 0xb1, 0xbd,
  0x0e, 0x29, 0x91, 0xbe, 0x9a, 0xd7, 0x39, 0x3d, 0x80, 0x8b, 0xda, 0xbe,
  0x9a, 0xf3, 0xc1, 0xbe, 0xba, 0x17, 0x97, 0xbe, 0x2f, 0x24, 0xbd, 0x3e,
  0xf2, 0xd0, 0x9c, 0xbe, 0xf5, 0x7f, 0xd2, 0x3e, 0x00, 0x49, 0x7e, 0xbc,
  0x57, 0xe2, 0x98, 0xbe, 0xe4, 0x76, 0x71, 0xbe, 0xfa, 0xfa, 0x58, 0x3e,
  0x84, 0x30, 0x14, 0xbe, 0xce, 0x41, 0xcf, 0xbe, 0x07, 0xa1, 0x8e, 0x3e,
  0xe3, 0xc3, 0x4d, 0xbe, 0x00, 0x00, 0x8d, 0xbd, 0x67, 0xcb, 0xd6, 0xbe,
  0xbc, 0x90, 0x8a, 0x3d, 0xa2, 0xff, 0xff, 0xff, 0x04, 0x00, 0x00, 0x00,
  0x40, 0x00, 0x00, 0x00, 0x5e, 0x7d, 0x05, 0xbf, 0xbb, 0x32, 0x10, 0xbf,
  0x26, 0x43, 0x09, 0x3f, 0x71, 0xdb, 0x89, 0xbf, 0xba, 0x45, 0x8b, 0x3e,
  0x77, 0x5e, 0x4b, 0x3f, 0xc0, 0x36, 0x18, 0xbe, 0x5e, 0x28, 0x14, 0xbf,
  0x5a, 0xb5, 0x8c, 0xbe, 0xa4, 0x97, 0xa6, 0x3e, 0xf3, 0x80, 0x22, 0xbf,
  0x7d, 0xb6, 0x55, 0x3e, 0x8c, 0xaf, 0xf4, 0x3e, 0xa2, 0x1f, 0x25, 0xbf,
  0x2a, 0x34, 0x2f, 0xbf, 0x56, 0x2b, 0x14, 0x3f, 0xee, 0xff, 0xff, 0xff,
  0x04, 0x00, 0x00, 0x00, 0x04, 0x00, 0x00, 0x00, 0xd0, 0xe7, 0x3a, 0x3e,
  0x00, 0x00, 0x06, 0x00, 0x08, 0x00, 0x04, 0x00, 0x06, 0x00, 0x00, 0x00,
  0x04, 0x00, 0x00, 0x00, 0x40, 0x00, 0x00, 0x00, 0x00, 0x00, 0x00, 0x00,
  0x00, 0x00, 0x00, 0x00, 0x41, 0x1a, 0x39, 0x3e, 0x6e, 0xa3, 0xe6, 0x3e,
  0x00, 0x00, 0x00, 0x00, 0x5b, 0x92, 0x3b, 0x3e, 0x00, 0x00, 0x00, 0x00,
  0x00, 0x00, 0x00, 0x00, 0x00, 0x00, 0x00, 0x00, 0xa7, 0xcb, 0x3a, 0x3e,
  0x7b, 0x29, 0xa1, 0xbe, 0x36, 0x09, 0x35, 0x3e, 0x23, 0x41, 0x39, 0x3e,
  0x68, 0x43, 0x01, 0xbf, 0x9d, 0x71, 0xae, 0xbe, 0x00, 0x00, 0x00, 0x00,
  0x44, 0xfb, 0xff, 0xff, 0x48, 0xfb, 0xff, 0xff, 0x0f, 0x00, 0x00, 0x00,
  0x4d, 0x4c, 0x49, 0x52, 0x20, 0x43, 0x6f, 0x6e, 0x76, 0x65, 0x72, 0x74,
  0x65, 0x64, 0x2e, 0x00, 0x01, 0x00, 0x00, 0x00, 0x14, 0x00, 0x00, 0x00,
  0x00, 0x00, 0x0e, 0x00, 0x18, 0x00, 0x14, 0x00, 0x10, 0x00, 0x0c, 0x00,
  0x08, 0x00, 0x04, 0x00, 0x0e, 0x00, 0x00, 0x00, 0x14, 0x00, 0x00, 0x00,
  0x1c, 0x00, 0x00, 0x00, 0xd8, 0x00, 0x00, 0x00, 0xdc, 0x00, 0x00, 0x00,
  0xe0, 0x00, 0x00, 0x00, 0x04, 0x00, 0x00, 0x00, 0x6d, 0x61, 0x69, 0x6e,
  0x00, 0x00, 0x00, 0x00, 0x03, 0x00, 0x00, 0x00, 0x80, 0x00, 0x00, 0x00,
  0x38, 0x00, 0x00, 0x00, 0x04, 0x00, 0x00, 0x00, 0x9a, 0xff, 0xff, 0xff,
  0x10, 0x00, 0x00, 0x00, 0x00, 0x00, 0x00, 0x08, 0x0c, 0x00, 0x00, 0x00,
  0x10, 0x00, 0x00, 0x00, 0xc0, 0xfb, 0xff, 0xff, 0x01, 0x00, 0x00, 0x00,
  0x09, 0x00, 0x00, 0x00, 0x03, 0x00, 0x00, 0x00, 0x08, 0x00, 0x00, 0x00,
  0x03, 0x00, 0x00, 0x00, 0x02, 0x00, 0x00, 0x00, 0xca, 0xff, 0xff, 0xff,
  0x10, 0x00, 0x00, 0x00, 0x00, 0x00, 0x00, 0x08, 0x10, 0x00, 0x00, 0x00,
  0x14, 0x00, 0x00, 0x00, 0xba, 0xff, 0xff, 0xff, 0x00, 0x00, 0x00, 0x01,
  0x01, 0x00, 0x00, 0x00, 0x08, 0x00, 0x00, 0x00, 0x03, 0x00, 0x00, 0x00,
  0x07, 0x00, 0x00, 0x00, 0x04, 0x00, 0x00, 0x00, 0x01, 0x00, 0x00, 0x00,
  0x00, 0x00, 0x0e, 0x00, 0x16, 0x00, 0x00, 0x00, 0x10, 0x00, 0x0c, 0x00,
  0x0b, 0x00, 0x04, 0x00, 0x0e, 0x00, 0x00, 0x00, 0x18, 0x00, 0x00, 0x00,
  0x00, 0x00, 0x00, 0x08, 0x18, 0x00, 0x00, 0x00, 0x1c, 0x00, 0x00, 0x00,
  0x00, 0x00, 0x06, 0x00, 0x08, 0x00, 0x07, 0x00, 0x06, 0x00, 0x00, 0x00,
  0x00, 0x00, 0x00, 0x01, 0x01, 0x00, 0x00, 0x00, 0x07, 0x00, 0x00, 0x00,
  0x03, 0x00, 0x00, 0x00, 0x00, 0x00, 0x00, 0x00, 0x05, 0x00, 0x00, 0x00,
  0x06, 0x00, 0x00, 0x00, 0x01, 0x00, 0x00, 0x00, 0x09, 0x00, 0x00, 0x00,
  0x01, 0x00, 0x00, 0x00, 0x00, 0x00, 0x00, 0x00, 0x0a, 0x00, 0x00, 0x00,
  0x68, 0x03, 0x00, 0x00, 0x14, 0x03, 0x00, 0x00, 0xc0, 0x02, 0x00, 0x00,
  0x80, 0x02, 0x00, 0x00, 0x40, 0x02, 0x00, 0x00, 0xf4, 0x01, 0x00, 0x00,
  0x90, 0x01, 0x00, 0x00, 0xfc, 0x00, 0x00, 0x00, 0x60, 0x00, 0x00, 0x00,
  0x04, 0x00, 0x00, 0x00, 0xd6, 0xfc, 0xff, 0xff, 0x00, 0x00, 0x00, 0x01,
  0x14, 0x00, 0x00, 0x00, 0x1c, 0x00, 0x00, 0x00, 0x1c, 0x00, 0x00, 0x00,
  0x0a, 0x00, 0x00, 0x00, 0x34, 0x00, 0x00, 0x00, 0x02, 0x00, 0x00, 0x00,
  0xff, 0xff, 0xff, 0xff, 0x01, 0x00, 0x00, 0x00, 0xc0, 0xfc, 0xff, 0xff,
  0x1b, 0x00, 0x00, 0x00, 0x53, 0x74, 0x61, 0x74, 0x65, 0x66, 0x75, 0x6c,
  0x50, 0x61, 0x72, 0x74, 0x69, 0x74, 0x69, 0x6f, 0x6e, 0x65, 0x64, 0x43,
  0x61, 0x6c, 0x6c, 0x5f, 0x31, 0x3a, 0x30, 0x00, 0x02, 0x00, 0x00, 0x00,
  0x01, 0x00, 0x00, 0x00, 0x01, 0x00, 0x00, 0x00, 0x2e, 0xfd, 0xff, 0xff,
  0x00, 0x00, 0x00, 0x01, 0x14, 0x00, 0x00, 0x00, 0x1c, 0x00, 0x00, 0x00,
  0x1c, 0x00, 0x00, 0x00, 0x09, 0x00, 0x00, 0x00, 0x74, 0x00, 0x00, 0x00,
  0x02, 0x00, 0x00, 0x00, 0xff, 0xff, 0xff, 0xff, 0x10, 0x00, 0x00, 0x00,
  0x18, 0xfd, 0xff, 0xff, 0x58, 0x00, 0x00, 0x00, 0x73, 0x65, 0x71, 0x75,
  0x65, 0x6e, 0x74, 0x69, 0x61, 0x6c, 0x5f, 0x31, 0x2f, 0x64, 0x65, 0x6e,
  0x73, 0x65, 0x5f, 0x31, 0x5f, 0x32, 0x2f, 0x4d, 0x61, 0x74, 0x4d, 0x75,
  0x6c, 0x3b, 0x73, 0x65, 0x71, 0x75, 0x65, 0x6e, 0x74, 0x69, 0x61, 0x6c,
  0x5f, 0x31, 0x2f, 0x64, 0x65, 0x6e, 0x73, 0x65, 0x5f, 0x31, 0x5f, 0x32,
  0x2f, 0x52, 0x65, 0x6c, 0x75, 0x3b, 0x73, 0x65, 0x71, 0x75, 0x65, 0x6e,
  0x74, 0x69, 0x61, 0x6c, 0x5f, 0x31, 0x2f, 0x64, 0x65, 0x6e, 0x73, 0x65,
  0x5f, 0x31, 0x5f, 0x32, 0x2f, 0x42, 0x69, 0x61, 0x73, 0x41, 0x64, 0x64,
  0x00, 0x00, 0x00, 0x00, 0x02, 0x00, 0x00, 0x00, 0x01, 0x00, 0x00, 0x00,
  0x10, 0x00, 0x00, 0x00, 0xc6, 0xfd, 0xff, 0xff, 0x00, 0x00, 0x00, 0x01,
  0x14, 0x00, 0x00, 0x00, 0x1c, 0x00, 0x00, 0x00, 0x1c, 0x00, 0x00, 0x00,
  0x08, 0x00, 0x00, 0x00, 0x6c, 0x00, 0x00, 0x00, 0x02, 0x00, 0x00, 0x00,
  0xff, 0xff, 0xff, 0xff, 0x10, 0x00, 0x00, 0x00, 0xb0, 0xfd, 0xff, 0xff,
  0x52, 0x00, 0x00, 0x00, 0x73, 0x65, 0x71, 0x75, 0x65, 0x6e, 0x74, 0x69,
  0x61, 0x6c, 0x5f, 0x31, 0x2f, 0x64, 0x65, 0x6e, 0x73, 0x65, 0x5f, 0x31,
  0x2f, 0x4d, 0x61, 0x74, 0x4d, 0x75, 0x6c, 0x3b, 0x73, 0x65, 0x71, 0x75,
  0x65, 0x6e, 0x74, 0x69, 0x61, 0x6c, 0x5f, 0x31, 0x2f, 0x64, 0x65, 0x6e,
  0x73, 0x65, 0x5f, 0x31, 0x2f, 0x52, 0x65, 0x6c, 0x75, 0x3b, 0x73, 0x65,
  0x71, 0x75, 0x65, 0x6e, 0x74, 0x69, 0x61, 0x6c, 0x5f, 0x31, 0x2f, 0x64,
  0x65, 0x6e, 0x73, 0x65, 0x5f, 0x31, 0x2f, 0x42, 0x69, 0x61, 0x73, 0x41,
  0x64, 0x64, 0x00, 0x00, 0x02, 0x00, 0x00, 0x00, 0x01, 0x00, 0x00, 0x00,
  0x10, 0x00, 0x00, 0x00, 0xa6, 0xfe, 0xff, 0xff, 0x00, 0x00, 0x00, 0x01,
  0x10, 0x00, 0x00, 0x00, 0x10, 0x00, 0x00, 0x00, 0x07, 0x00, 0x00, 0x00,
  0x44, 0x00, 0x00, 0x00, 0x30, 0xfe, 0xff, 0xff, 0x36, 0x00, 0x00, 0x00,
  0x73, 0x65, 0x71, 0x75, 0x65, 0x6e, 0x74, 0x69, 0x61, 0x6c, 0x5f, 0x31,
  0x2f, 0x64, 0x65, 0x6e, 0x73, 0x65, 0x5f, 0x31, 0x2f, 0x52, 0x65, 0x6c,
  0x75, 0x3b, 0x73, 0x65, 0x71, 0x75, 0x65, 0x6e, 0x74, 0x69, 0x61, 0x6c,
  0x5f, 0x31, 0x2f, 0x64, 0x65, 0x6e, 0x73, 0x65, 0x5f, 0x31, 0x2f, 0x42,
  0x69, 0x61, 0x73, 0x41, 0x64, 0x64, 0x00, 0x00, 0x01, 0x00, 0x00, 0x00,
  0x10, 0x00, 0x00, 0x00, 0x06, 0xff, 0xff, 0xff, 0x00, 0x00, 0x00, 0x01,
  0x10, 0x00, 0x00, 0x00, 0x10, 0x00, 0x00, 0x00, 0x06, 0x00, 0x00, 0x00,
  0x28, 0x00, 0x00, 0x00, 0x90, 0xfe, 0xff, 0xff, 0x1b, 0x00, 0x00, 0x00,
  0x73, 0x65, 0x71, 0x75, 0x65, 0x6e, 0x74, 0x69, 0x61, 0x6c, 0x5f, 0x31,
  0x2f, 0x64, 0x65, 0x6e, 0x73, 0x65, 0x5f, 0x31, 0x2f, 0x4d, 0x61, 0x74,
  0x4d, 0x75, 0x6c, 0x00, 0x02, 0x00, 0x00, 0x00, 0x10, 0x00, 0x00, 0x00,
  0x01, 0x00, 0x00, 0x00, 0x4e, 0xff, 0xff, 0xff, 0x00, 0x00, 0x00, 0x01,
  0x10, 0x00, 0x00, 0x00, 0x10, 0x00, 0x00, 0x00, 0x05, 0x00, 0x00, 0x00,
  0x1c, 0x00, 0x00, 0x00, 0xd8, 0xfe, 0xff, 0xff, 0x0f, 0x00, 0x00, 0x00,
  0x61, 0x72, 0x69, 0x74, 0x68, 0x2e, 0x63, 0x6f, 0x6e, 0x73, 0x74, 0x61,
  0x6e, 0x74, 0x33, 0x00, 0x02, 0x00, 0x00, 0x00, 0x10, 0x00, 0x00, 0x00,
  0x10, 0x00, 0x00, 0x00, 0x8a, 0xff, 0xff, 0xff, 0x00, 0x00, 0x00, 0x01,
  0x10, 0x00, 0x00, 0x00, 0x10, 0x00, 0x00, 0x00, 0x04, 0x00, 0x00, 0x00,
  0x1c, 0x00, 0x00, 0x00, 0x14, 0xff, 0xff, 0xff, 0x0f, 0x00, 0x00, 0x00,
  0x61, 0x72, 0x69, 0x74, 0x68, 0x2e, 0x63, 0x6f, 0x6e, 0x73, 0x74, 0x61,
  0x6e, 0x74, 0x32, 0x00, 0x02, 0x00, 0x00, 0x00, 0x01, 0x00, 0x00, 0x00,
  0x10, 0x00, 0x00, 0x00, 0xc6, 0xff, 0xff, 0xff, 0x00, 0x00, 0x00, 0x01,
  0x10, 0x00, 0x00, 0x00, 0x10, 0x00, 0x00, 0x00, 0x03, 0x00, 0x00, 0x00,
  0x1c, 0x00, 0x00, 0x00, 0x50, 0xff, 0xff, 0xff, 0x0f, 0x00, 0x00, 0x00,
  0x61, 0x72, 0x69, 0x74, 0x68, 0x2e, 0x63, 0x6f, 0x6e, 0x73, 0x74, 0x61,
  0x6e, 0x74, 0x31, 0x00, 0x01, 0x00, 0x00, 0x00, 0x01, 0x00, 0x00, 0x00,
  0x00, 0x00, 0x16, 0x00, 0x18, 0x00, 0x14, 0x00, 0x00, 0x00, 0x10, 0x00,
  0x0c, 0x00, 0x08, 0x00, 0x00, 0x00, 0x00, 0x00, 0x00, 0x00, 0x07, 0x00,
  0x16, 0x00, 0x00, 0x00, 0x00, 0x00, 0x00, 0x01, 0x10, 0x00, 0x00, 0x00,
  0x10, 0x00, 0x00, 0x00, 0x02, 0x00, 0x00, 0x00, 0x1c, 0x00, 0x00, 0x00,
  0xa0, 0xff, 0xff, 0xff, 0x0e, 0x00, 0x00, 0x00, 0x61, 0x72, 0x69, 0x74,
  0x68, 0x2e, 0x63, 0x6f, 0x6e, 0x73, 0x74, 0x61, 0x6e, 0x74, 0x00, 0x00,
  0x01, 0x00, 0x00, 0x00, 0x10, 0x00, 0x00, 0x00, 0x00, 0x00, 0x16, 0x00,
  0x1c, 0x00, 0x18, 0x00, 0x00, 0x00, 0x14, 0x00, 0x10, 0x00, 0x0c, 0x00,
  0x00, 0x00, 0x00, 0x00, 0x08, 0x00, 0x07, 0x00, 0x16, 0x00, 0x00, 0x00,
  0x00, 0x00, 0x00, 0x01, 0x14, 0x00, 0x00, 0x00, 0x20, 0x00, 0x00, 0x00,
  0x20, 0x00, 0x00, 0x00, 0x01, 0x00, 0x00, 0x00, 0x3c, 0x00, 0x00, 0x00,
  0x02, 0x00, 0x00, 0x00, 0xff, 0xff, 0xff, 0xff, 0x01, 0x00, 0x00, 0x00,
  0x04, 0x00, 0x04, 0x00, 0x04, 0x00, 0x00, 0x00, 0x1e, 0x00, 0x00, 0x00,
  0x73, 0x65, 0x72, 0x76, 0x69, 0x6e, 0x67, 0x5f, 0x64, 0x65, 0x66, 0x61,
  0x75, 0x6c, 0x74, 0x5f, 0x6b, 0x65, 0x72, 0x61, 0x73, 0x5f, 0x74, 0x65,
  0x6e, 0x73, 0x6f, 0x72, 0x3a, 0x30, 0x00, 0x00, 0x02, 0x00, 0x00, 0x00,
  0x01, 0x00, 0x00, 0x00, 0x01, 0x00, 0x00, 0x00, 0x01, 0x00, 0x00, 0x00,
  0x10, 0x00, 0x00, 0x00, 0x0c, 0x00, 0x0c, 0x00, 0x0b, 0x00, 0x00, 0x00,
  0x00, 0x00, 0x04, 0x00, 0x0c, 0x00, 0x00, 0x00, 0x09, 0x00, 0x00, 0x00,
  0x00, 0x00, 0x00, 0x09
};

#endif //SINE_MODEL_H